57 64 1
0.420 -0.387 0.410 1.003 0.230 0.762 -0.663 -0.545 0.754 1.139 0.760 0.202 0.462 -1.321 -0.853 -0.113 -1.550 0.349 0.476 -0.049 1.602 -1.462 -0.208 2.121 -0.065 1.222 -0.538 -2.535 -1.556 0.695 0.888 -1.963 0.263 -0.140 -1.357 -0.711 0.281 1.622 -0.469 -1.435 0.710 -0.889 -0.876 0.846 0.066 0.560 -0.459 -0.816 1.117 1.682 0.156 0.337 -0.832 -0.561 0.120 0.530 -1.171 2.673
0.521 -1.372 -0.053 0.179 1.284 0.507 1.292 0.012 0.178 0.997 -2.148 -1.498 -0.550 -0.285 0.332 1.897 2.111 -1.194 0.237 -1.549 -1.621 -0.325 -0.633 -0.730 -1.398 0.309 -0.219 0.180 -0.615 -0.898 -2.394 -0.616 -0.001 1.846 0.542 -2.931 -1.463 -1.410 -0.652 1.141 0.030 0.010 0.028 -0.962 -0.630 2.336 0.989 -0.485 0.716 -0.191 0.949 -0.922 -1.201 0.417 0.437 -0.992 -0.839 0.617
0.045 -0.524 -0.250 -0.176 0.331 -2.382 -0.131 2.201 -0.989 -1.007 -0.695 -0.545 -0.266 0.584 -0.804 1.606 0.162 0.326 0.114 -0.564 -0.164 -0.968 1.065 -2.734 1.680 1.498 0.615 0.532 0.676 1.516 -1.231 -0.779 -1.220 -1.528 0.857 0.816 -0.234 -1.343 0.027 0.654 0.440 0.256 -0.411 -0.139 -0.589 -1.811 1.014 0.421 -0.091 -2.193 0.412 -1.522 1.075 1.033 -1.132 0.143 -0.098 -1.107
2.014 0.187 0.823 2.083 0.813 0.516 -0.883 -2.271 2.633 0.877 0.526 -1.063 0.734 -0.592 1.087 1.098 -1.349 -0.645 0.231 0.002 -0.916 1.731 1.405 0.003 -0.315 0.478 1.743 -0.891 1.374 -1.289 -0.135 1.063 0.837 -0.527 -0.926 1.507 0.386 0.197 -1.498 0.200 0.394 -0.589 -0.870 1.263 0.208 -0.006 0.393 0.923 -1.288 -1.265 1.204 0.558 -0.193 0.263 -0.698 -1.027 -0.418 -1.001
0.721 0.299 0.583 -0.790 -1.312 1.114 -0.470 -1.307 -0.879 0.036 -1.081 0.305 0.289 -1.427 0.645 0.779 -1.286 -0.190 0.739 0.037 1.100 -0.911 -0.326 0.136 -0.114 -0.595 0.413 -0.626 0.561 1.839 -0.819 -0.452 -1.197 -0.561 -0.275 -0.348 -1.188 0.061 0.676 0.529 2.173 -0.934 0.466 1.325 -0.161 -1.255 -2.440 -0.519 -0.320 1.261 0.694 -1.015 0.639 -0.060 1.636 1.234 0.044 0.596
-0.484 -0.374 0.773 -1.700 -0.486 -0.456 0.806 1.151 1.042 2.325 -1.586 1.436 0.148 1.246 0.226 -0.490 1.328 -0.070 -1.109 -0.273 -0.028 -0.463 2.217 0.633 -0.264 0.577 -0.017 0.988 -2.231 -0.084 -1.363 -0.321 -0.564 0.406 -0.285 -0.852 1.002 -0.419 -1.420 -0.004 -0.533 -0.253 -0.762 -0.882 0.104 -0.671 1.125 0.949 0.037 0.341 -1.125 0.326 -0.508 0.392 1.272 0.553 0.422 0.548
-1.143 -0.076 -0.438 -0.005 -1.530 -0.949 -1.330 -0.370 1.471 1.239 0.140 -1.295 0.062 -0.140 -1.536 0.485 -0.881 -1.430 -0.052 0.705 0.953 0.449 -0.253 3.165 0.764 0.097 -0.036 1.678 -0.468 -0.808 1.816 0.840 -0.971 -0.905 0.511 1.387 -0.473 1.825 2.113 0.403 0.552 -0.093 0.790 -1.288 1.132 0.749 0.867 -0.665 0.621 -0.575 0.044 1.357 0.396 -0.699 -0.094 0.577 -1.885 -1.246
0.146 -1.165 -0.901 -1.204 0.697 1.136 0.240 0.063 0.826 -0.555 -2.070 -1.042 0.710 -1.765 0.913 -1.325 0.937 -1.218 0.497 -0.482 -0.678 0.991 -0.157 -1.466 0.003 0.455 -0.474 -0.293 -0.815 0.753 -0.760 1.564 1.245 1.756 -1.331 -0.273 -1.102 1.030 -0.618 0.641 0.068 -0.333 1.196 0.832 -0.547 -0.821 -1.589 0.759 0.102 0.134 -0.809 0.608 0.420 -0.198 -0.732 -2.515 -0.242 0.300
-0.753 0.463 0.070 -0.550 -0.386 0.301 -0.426 -0.610 0.446 1.626 -0.211 0.501 -0.691 -0.995 0.550 -0.989 -0.862 1.842 -0.732 -1.068 -1.781 -2.187 1.019 0.770 -1.114 0.588 -0.494 -0.062 -0.391 -0.370 0.854 -0.052 0.435 1.074 -0.048 1.843 0.305 1.268 1.746 0.250 -1.233 0.658 1.170 -0.609 0.861 -0.095 -1.935 0.633 1.127 -0.230 -1.329 -0.388 -1.133 0.697 -0.323 -0.755 -0.398 -0.700
-1.504 -0.142 -1.597 0.174 0.309 0.857 -0.805 -0.501 0.549 0.661 1.374 0.230 -0.332 -0.594 -1.814 2.374 -1.078 0.655 0.375 1.125 -0.706 0.018 -1.706 -0.180 2.153 0.835 -0.742 1.378 0.149 -0.378 -0.146 -1.270 1.387 -0.702 -0.730 1.613 -1.580 -1.415 -0.385 0.171 0.325 -0.474 0.225 -0.673 2.394 0.527 0.018 0.098 1.020 1.177 0.086 0.877 -0.643 0.033 -1.059 0.461 0.089 -0.109
-0.765 -0.732 -0.167 1.265 0.062 -0.352 1.393 0.103 -1.698 0.496 -0.785 -1.839 -1.216 -0.854 0.619 0.361 -2.338 -0.026 -0.187 -1.012 -0.425 1.016 1.132 0.106 -0.767 0.262 -1.209 1.556 -1.085 -0.202 1.834 -0.308 0.004 0.829 -1.761 -1.078 1.926 -1.061 -0.350 1.161 1.462 0.088 0.088 -0.024 0.333 -0.437 -2.327 0.993 -0.773 -0.809 0.119 -0.365 -0.649 -0.450 -0.779 0.965 -0.309 0.572
0.769 0.406 1.272 -0.009 -0.154 -0.365 -1.927 -0.111 -0.803 -1.526 -0.851 0.519 -0.350 -1.476 0.947 -1.512 -1.565 -0.258 -1.575 1.134 -0.457 -0.613 -0.038 0.846 -1.733 -0.686 0.995 -0.319 -0.724 1.145 1.130 0.264 0.822 1.220 0.006 0.348 -0.514 -0.268 0.302 0.196 0.658 -0.786 0.297 -0.647 1.031 -0.272 -0.682 0.298 -0.119 1.693 0.206 0.939 0.072 1.054 -0.497 1.676 -1.020 -0.679
0.953 -0.220 0.052 0.964 -0.196 0.899 -1.269 2.135 -0.284 2.065 1.986 0.067 -0.440 0.583 -0.264 -0.697 -1.271 -0.412 1.574 0.853 -1.081 -0.009 -0.344 -0.820 -2.658 -1.875 -0.594 -1.330 0.106 0.838 0.533 0.077 1.765 -0.143 -1.131 0.731 2.109 0.295 -1.027 -1.289 -0.300 1.299 -0.612 -0.935 -1.115 1.154 -0.233 -0.836 -1.768 -0.005 0.727 -0.247 0.316 -1.031 -0.086 -1.288 0.869 1.680
-2.475 -0.046 0.001 1.442 0.646 0.073 -1.082 -0.645 0.974 -0.655 -1.672 -0.329 1.045 1.231 -0.458 -0.219 -1.505 -0.337 0.154 0.512 -0.882 -0.209 0.617 1.033 0.174 -1.040 -0.137 0.105 -0.481 -0.766 -0.431 -1.097 -1.480 -1.816 0.332 0.522 1.068 -0.194 -0.686 -0.646 -0.496 1.016 -0.532 1.283 -0.195 -0.344 0.630 0.334 0.393 -0.088 -0.150 0.718 -0.575 0.231 0.834 1.029 0.180 1.151
0.149 0.660 -0.223 -0.447 0.146 0.723 -0.598 -0.524 0.035 -0.636 -1.581 1.076 -0.566 -1.082 -1.182 -0.489 -0.073 -0.339 -1.041 0.202 -0.774 0.209 -0.210 1.061 0.242 1.514 -1.132 0.075 -0.692 -0.695 -0.307 -1.690 -0.094 1.717 1.640 -1.991 0.208 -0.377 0.553 -0.812 -0.410 0.952 -0.555 -0.710 -0.150 -0.175 0.924 0.005 -1.118 -0.250 0.387 -0.388 -0.314 -0.370 0.969 0.347 -0.305 -0.976
-0.701 -1.171 -0.309 -0.687 -0.606 -1.127 0.075 -1.364 -0.264 -2.078 -0.530 -0.163 2.395 -0.384 1.032 -0.257 -1.120 -1.795 -0.813 1.807 2.112 -1.553 0.029 1.417 -0.742 0.501 -0.610 0.977 1.040 -0.256 0.777 0.192 0.321 -0.167 -1.527 1.241 -0.692 -0.413 0.396 -0.303 0.891 0.950 -0.844 0.188 0.878 -0.091 -0.426 -1.221 1.317 -1.647 0.165 -0.551 1.597 -0.907 -0.085 -0.732 2.563 -0.169
-0.704 0.397 -0.784 1.043 -0.376 -0.274 -0.991 -0.156 -0.807 -0.737 1.095 -1.439 -0.399 0.756 0.527 -0.050 0.246 -0.304 0.278 0.095 -0.956 0.803 0.557 -0.594 -1.097 0.477 -0.015 -0.718 1.102 0.378 0.671 -0.228 0.455 -0.623 1.202 1.363 -1.548 -0.538 1.170 -1.301 -1.435 1.126 -1.706 -0.806 0.868 -0.992 -1.217 0.229 1.285 -0.286 1.265 2.287 0.010 2.134 -0.007 0.416 -0.084 -0.960
-1.535 0.690 0.550 -0.678 -1.326 2.002 -0.603 -0.228 -0.004 0.357 -0.847 1.126 -1.036 -2.364 -0.588 -1.721 0.880 -0.188 -0.237 0.880 1.349 -1.539 -0.171 0.909 0.474 0.220 0.244 1.071 1.799 0.467 1.449 -0.104 -1.033 -0.799 0.821 0.172 -0.346 1.190 -0.378 -0.191 0.477 0.388 0.461 0.854 0.609 0.271 -0.171 -0.200 -1.858 -1.743 2.249 -0.729 -0.037 0.667 -1.323 -1.046 0.349 -0.060
0.094 1.952 -0.603 -0.032 -1.004 1.071 -1.201 -0.106 1.268 -1.120 -1.635 -1.358 -0.944 -0.095 0.049 -0.563 0.995 0.128 -0.037 -0.076 1.125 0.591 0.223 -0.869 0.573 -1.934 0.698 -2.348 -0.714 -1.192 0.884 -0.780 -0.567 0.073 1.093 0.693 1.945 -0.669 -0.334 -0.450 0.193 -0.421 -0.959 -0.355 -0.522 0.289 0.502 -0.039 0.234 0.284 0.514 1.588 -0.029 1.539 0.512 -0.246 -0.203 0.526
0.117 -1.900 -0.083 1.058 -0.669 -0.969 -1.387 -0.346 0.709 0.702 -1.500 0.725 0.894 -0.691 -2.068 -0.305 0.123 1.126 0.308 -0.102 1.834 -0.297 -0.070 -0.023 1.966 0.086 2.704 0.877 1.335 -0.425 0.827 -0.459 -0.486 0.129 -0.214 -1.604 1.393 -1.107 0.243 -0.945 -1.255 0.932 -1.123 1.448 -1.924 1.651 0.150 0.334 0.727 -0.296 0.605 0.976 0.614 0.360 1.321 -0.467 0.433 -0.148
-0.531 -0.493 -1.252 1.439 1.287 -1.567 -1.128 0.704 1.401 -0.484 -0.964 -1.578 -1.785 -0.298 1.061 0.007 -0.446 0.939 -0.606 -2.040 -1.130 -0.254 -1.583 -0.795 1.175 -0.033 1.049 1.248 -1.617 -1.082 0.557 1.371 0.973 -1.335 0.858 0.239 1.849 -0.558 0.832 -0.494 0.721 -0.808 2.158 0.210 0.204 0.555 -0.690 0.348 -0.445 0.895 0.571 0.838 -0.662 0.052 1.636 -0.992 -1.874 -0.260
0.535 1.081 -0.093 -0.582 1.387 -1.140 0.123 -0.110 -0.456 -0.028 -1.160 0.704 0.703 -0.991 0.154 -0.300 -1.018 1.180 -1.483 -1.328 -0.854 -1.291 1.280 -1.827 -1.994 -0.924 0.357 0.069 -0.467 0.219 -2.313 2.323 0.230 1.091 -0.061 0.582 0.026 -1.038 -0.560 -1.501 -0.593 0.303 0.251 -0.271 0.968 1.729 0.303 -0.908 0.191 1.152 0.364 1.086 1.551 1.486 -0.591 -0.951 0.428 -0.584
0.641 -1.578 -1.873 0.707 1.760 -0.763 -0.743 1.409 1.199 -0.753 -0.438 -0.809 0.928 0.093 1.845 0.125 -2.516 -0.190 0.295 -0.678 1.086 -1.091 -1.010 -1.617 1.716 -0.506 -1.043 0.340 1.522 0.747 -1.392 -0.471 -1.254 -0.393 -0.943 0.326 -0.478 2.095 0.441 -1.328 0.764 0.503 1.056 0.884 -1.394 -0.962 0.041 1.845 -1.348 0.156 1.470 0.580 0.375 0.308 -0.321 0.655 0.722 0.417
-0.726 -0.756 1.643 1.204 0.996 -1.114 1.356 0.451 0.244 -0.224 0.715 0.301 0.715 0.504 -0.963 0.129 -0.654 0.903 1.397 -1.232 -0.077 1.389 0.401 -0.486 0.198 0.741 0.016 0.496 1.669 0.075 0.193 0.194 -1.523 -0.515 0.144 2.353 -0.256 0.452 0.590 1.011 -0.159 -0.878 0.224 -0.066 -0.255 0.650 1.554 1.180 -0.254 0.591 -0.922 -0.452 -0.109 0.940 1.854 1.999 -0.307 1.604
0.320 2.549 0.454 0.237 0.877 0.162 -0.869 -0.673 0.521 -3.368 -1.600 -0.292 0.665 0.592 -0.482 0.508 1.323 1.106 -0.385 -0.201 -0.124 -1.183 -0.835 0.038 -0.976 0.341 1.215 0.238 1.172 0.857 0.133 -1.261 -0.369 1.206 0.928 -0.535 -2.080 0.364 0.324 0.856 -0.063 0.237 1.597 -0.368 0.616 0.452 -1.471 0.747 0.579 -0.587 0.360 1.081 -0.446 -1.279 -0.113 0.823 0.177 0.369
-0.653 -0.166 -0.134 -1.411 -0.182 0.120 -1.556 0.394 0.489 -0.466 1.649 -1.751 -0.116 0.329 -0.612 0.329 1.188 -1.507 -0.141 0.782 0.432 0.096 -0.035 1.329 -1.036 1.475 0.304 -1.245 1.874 0.344 0.890 -1.324 -1.333 1.175 0.900 -0.112 0.461 1.326 1.166 0.518 -0.791 -1.465 1.106 -0.910 -0.188 0.310 -1.304 0.693 0.106 2.801 0.082 -2.007 -0.274 0.626 0.802 -0.713 -1.437 -0.948
0.153 2.140 0.349 -0.818 -0.192 -2.293 -0.440 -0.475 0.365 0.844 -1.704 -1.111 0.267 -0.109 -1.307 -0.570 0.511 0.818 0.607 1.153 -1.690 -0.222 -1.668 0.408 1.292 -0.267 -0.097 -0.594 -0.244 -2.554 -1.484 0.817 -0.404 -0.442 0.621 0.296 1.595 -0.364 1.539 -0.411 -1.595 -0.295 0.482 0.861 0.938 -0.734 0.103 -1.813 -0.634 -2.171 -0.445 -0.444 0.919 0.181 -0.202 -0.784 -0.426 -0.704
-1.072 2.364 -2.171 -0.025 1.339 -0.114 -0.442 -0.028 -0.112 -0.678 0.530 -1.280 0.353 1.979 1.293 0.161 1.877 -0.827 0.137 -0.531 -0.972 0.436 -1.798 0.306 0.526 -0.977 0.207 -0.547 0.412 1.302 0.567 -0.355 -0.774 -1.470 -0.245 -1.334 0.460 -0.201 0.859 -0.038 -0.978 -0.961 2.191 -1.062 -0.353 -0.578 0.184 0.748 -2.609 -1.253 0.643 0.221 -1.220 1.158 1.734 0.377 1.254 -1.758
1.213 -1.538 0.968 1.811 -0.462 0.740 -0.528 1.065 -1.097 0.578 -0.789 -0.518 0.756 -1.478 -0.144 -1.484 -2.103 1.326 0.306 -0.150 0.468 -0.007 0.893 -1.996 0.601 -0.201 -1.224 -0.909 2.499 -0.196 -0.955 -1.190 0.138 -0.271 -1.516 -0.288 1.123 0.990 -0.577 0.309 -0.099 1.597 -0.215 -1.331 -1.051 -0.883 0.545 0.696 1.296 -1.270 1.458 -0.090 -0.942 -1.706 0.728 1.268 1.312 -0.251
-0.845 -1.116 2.413 0.049 1.139 1.004 -0.149 0.828 -0.761 -0.461 1.114 0.178 0.092 0.055 0.693 -1.061 1.111 0.102 -0.996 1.730 -0.394 0.318 0.216 -0.352 -0.083 -1.171 -0.925 -0.005 -1.051 1.861 -0.102 -0.681 -1.243 -0.007 -1.043 -1.667 0.285 -2.294 -0.678 -0.820 0.205 -0.140 0.530 1.769 -1.312 0.878 -1.242 -0.025 1.040 0.383 -0.639 0.308 -0.275 0.328 0.411 -1.154 -1.219 0.105
0.099 0.378 -1.565 -0.840 0.443 0.067 -0.685 0.513 1.277 0.483 0.515 0.508 -1.166 0.144 0.732 1.364 0.227 -0.667 0.782 -0.488 0.007 -0.617 -1.294 -0.188 -0.223 1.060 -0.818 -0.799 -1.810 0.246 0.293 -1.229 0.554 -1.639 0.514 0.275 -0.596 -0.870 0.980 -1.155 1.481 0.296 -0.186 -0.488 -0.733 0.510 -0.042 2.067 0.264 1.155 -1.642 -0.611 -1.209 -0.613 -1.805 0.795 -0.225 -0.860
0.027 -1.349 -2.582 -0.623 0.115 0.602 -0.156 -1.016 0.168 -0.252 -0.990 -0.808 -0.287 1.318 0.029 0.970 0.921 1.660 1.659 1.501 1.480 0.381 0.600 1.665 0.109 0.740 -0.810 1.017 -0.350 0.448 1.390 0.277 -0.040 -0.810 0.164 1.474 0.832 0.638 0.914 -0.431 -0.065 0.970 -1.870 -0.502 1.194 -1.678 -1.172 1.327 -0.441 -1.941 0.783 -0.561 0.214 0.467 -0.663 0.947 -1.343 0.526
0.143 -0.942 3.079 -0.286 -2.120 0.620 -0.439 -0.712 -0.486 -0.327 -2.431 -0.502 0.636 0.044 -1.205 1.673 -0.284 1.193 -1.531 -1.295 -1.622 0.495 -1.496 -0.001 0.524 -0.294 -0.097 0.556 0.999 1.218 2.254 -1.501 0.157 -0.404 0.997 -0.755 0.643 0.017 -0.311 0.313 0.613 2.105 1.709 -1.036 -0.261 -0.458 0.703 0.411 0.331 2.063 -1.163 0.488 -0.461 0.119 -1.366 0.060 0.344 1.040
-0.265 0.219 -0.223 -0.173 0.109 -0.130 1.438 -0.131 0.609 -0.417 -1.721 0.967 -0.922 0.984 -1.612 0.194 -0.193 0.556 0.851 1.163 0.138 -0.917 -1.224 -1.302 -0.881 -1.767 -0.153 -1.315 -1.119 -1.161 -1.754 -0.599 -0.143 0.064 0.224 -0.031 0.154 1.765 -1.980 1.177 -1.559 -0.190 -0.835 -1.586 -1.635 0.278 1.489 0.923 1.211 -0.532 -0.604 0.702 -0.183 -1.644 1.032 -0.210 0.633 -2.065
-0.813 -1.114 1.393 0.311 -0.321 0.415 -1.664 1.444 -0.076 -0.190 -0.601 -2.237 1.107 -0.431 0.675 1.033 0.296 1.168 -1.015 0.446 -0.504 1.132 -0.946 1.759 -0.306 -1.695 1.468 -0.321 -0.237 -0.475 1.015 0.807 -0.544 0.386 -1.929 -0.307 -1.016 -1.419 -1.141 -0.679 -0.124 1.635 -0.088 -0.990 -0.321 0.322 -0.978 0.489 -0.158 -2.516 1.328 -0.403 0.165 0.294 -1.220 0.655 -0.180 -0.173
-1.583 -1.199 0.038 0.364 0.594 1.161 -0.014 0.870 1.968 0.626 -0.014 -0.701 -0.043 0.207 -1.934 -1.677 0.006 0.405 0.263 0.571 0.197 -1.228 1.357 -0.221 0.386 -0.967 0.156 0.202 -0.081 0.224 -0.674 -2.069 0.751 -1.036 0.534 -0.714 -0.670 -0.974 -1.061 0.283 0.641 0.124 0.840 -0.877 0.405 1.569 0.474 1.279 0.945 -0.838 1.855 1.639 -0.677 -1.093 0.367 0.707 -0.283 0.535
0.279 0.306 -0.612 0.820 -0.049 0.831 1.087 0.162 -0.763 2.287 0.197 -0.042 -0.525 0.976 -0.143 -2.128 1.202 0.904 0.378 -0.657 1.260 0.750 0.437 0.111 -0.349 0.126 0.552 0.558 0.930 0.937 0.775 0.239 -1.339 0.429 1.204 -1.475 2.312 1.005 -0.847 0.307 -0.254 0.045 0.535 -0.049 -0.626 -1.147 0.561 0.534 -0.265 -0.252 -0.031 -0.329 0.158 -1.566 1.140 -0.432 0.415 1.322
1.046 0.205 0.453 -0.699 1.033 1.641 -0.834 0.452 0.810 1.647 -1.033 -1.432 0.289 0.491 -1.731 -0.527 0.029 -0.155 -1.240 0.401 -1.799 -0.944 -1.014 -2.374 0.089 -0.470 0.203 1.354 -0.735 0.578 0.765 0.555 1.320 1.210 -0.496 0.992 0.445 -0.736 -0.030 -0.027 0.678 -0.169 1.750 -2.771 -1.801 -0.570 0.069 0.223 0.025 -1.472 -0.265 -1.261 -0.797 0.592 1.589 -0.060 0.759 1.445
-1.249 0.511 1.591 -0.053 -0.664 0.494 0.622 -1.621 -1.411 -1.071 -0.320 -0.375 0.844 -0.734 1.946 0.198 1.420 0.065 -0.677 1.954 -1.135 0.221 -0.419 0.175 0.240 -1.169 -0.111 -0.673 0.579 0.940 0.132 0.339 0.396 -1.269 1.820 0.070 -0.198 -0.989 0.147 -0.754 0.588 -0.103 -0.669 -0.937 1.400 -0.199 -0.205 1.657 0.014 0.192 -0.331 -0.184 0.105 0.248 -1.019 0.323 0.177 0.329
0.845 0.300 0.542 0.551 -1.513 1.668 -0.251 -1.062 0.392 -0.999 -0.816 1.728 -1.064 -0.097 0.070 1.583 -0.341 1.354 -0.656 0.213 0.162 1.621 1.633 1.381 -0.880 0.670 -0.273 -1.956 2.029 1.863 -0.093 -0.501 0.372 0.010 -0.126 0.171 1.807 0.396 1.818 -0.881 0.692 -0.576 -1.585 0.977 -0.710 0.525 -1.501 0.528 -1.084 -0.943 0.509 0.224 1.756 -1.935 1.208 1.266 0.614 1.262
0.035 -0.290 -0.436 1.395 -2.361 -0.918 -0.275 -2.820 0.297 1.573 0.387 0.436 -0.320 0.091 -1.128 0.051 1.487 1.326 -0.306 0.171 -0.993 0.374 -0.798 2.294 0.542 1.206 1.376 -1.806 -0.135 -2.713 -0.319 0.697 -0.794 -0.739 -0.918 0.849 1.049 -0.986 0.159 -1.340 -1.183 -1.068 1.066 -1.568 -0.109 -0.455 0.278 0.893 1.145 -0.202 1.569 1.553 0.154 2.059 -2.091 0.668 -0.599 -1.445
-0.172 -0.286 1.871 0.894 -0.474 0.933 1.219 -0.273 0.389 0.901 -1.325 1.794 1.795 -0.315 0.565 -2.045 0.553 0.569 1.192 -0.671 -1.038 -1.194 0.850 0.452 -1.171 -0.541 0.020 0.211 1.517 -0.154 0.097 -0.102 1.587 0.288 -0.979 1.634 -0.265 0.335 -0.296 -0.992 -0.868 -0.149 -1.157 0.231 1.869 -0.877 0.580 0.214 0.908 0.409 -0.940 2.455 0.430 0.801 -1.578 2.109 0.616 0.102
1.163 1.661 1.377 -0.522 -0.390 0.132 -0.054 1.391 0.245 -1.590 -0.020 0.063 0.382 -0.362 -0.552 0.698 -1.019 0.233 1.285 -0.661 1.377 -0.173 0.821 -0.864 0.861 2.171 -1.627 0.417 1.702 1.586 0.995 -1.788 0.537 0.683 0.966 2.050 0.603 -2.038 0.300 -0.549 0.479 -1.170 -1.297 0.676 0.246 -0.221 1.608 0.205 0.912 -0.272 -0.629 2.300 0.183 0.157 -1.716 0.332 -0.558 -1.168
-0.819 0.193 -1.665 0.577 -0.152 0.916 -1.523 -0.266 0.533 -0.265 -1.447 -0.500 0.028 -0.062 -0.583 -0.191 0.308 -1.410 -1.074 0.542 -1.917 0.810 0.780 0.115 -1.903 -0.465 0.339 -2.116 0.688 1.527 -0.851 0.504 2.575 -2.317 0.700 0.319 0.846 -1.358 1.192 0.238 -1.741 -0.586 1.955 1.358 0.496 1.552 -1.190 -1.007 0.393 0.890 0.042 -2.157 -0.076 -0.345 0.421 0.837 -0.172 1.513
-1.019 0.631 -1.276 0.736 0.946 -1.079 -0.098 0.936 -1.360 0.306 1.018 0.164 0.941 0.533 0.569 0.196 0.914 -1.433 2.408 -0.184 0.824 -1.108 0.646 -0.693 -0.686 0.507 -0.715 -0.688 0.190 2.748 0.712 1.032 0.724 -0.002 -0.300 -1.416 -0.696 -0.827 1.748 -1.021 0.019 0.328 -0.448 -0.704 0.673 -0.102 0.091 0.363 -0.319 1.264 0.056 -1.591 1.438 0.474 0.777 -1.582 -0.593 -0.058
-1.921 -0.826 1.850 -0.850 0.881 -0.059 -0.954 -0.799 0.046 0.288 -1.165 -1.134 -0.848 1.127 -0.531 -1.885 -0.992 0.643 0.448 -0.901 0.967 -1.599 -0.672 0.200 -0.671 1.717 -0.749 -0.829 -0.849 1.268 1.562 1.070 2.504 0.862 0.488 -0.480 -0.087 0.473 -0.180 -0.443 0.226 -0.306 -0.417 2.873 1.018 0.633 1.043 -1.903 1.133 0.074 0.706 0.251 1.581 -2.565 -0.368 0.596 -0.761 -1.128
-0.242 0.855 -0.637 -1.072 -0.332 0.169 -0.133 -0.627 -0.513 -0.098 -0.501 -1.504 0.453 -0.104 0.527 -1.520 1.363 1.240 -0.125 -1.282 -0.307 0.241 0.782 -0.763 1.424 1.140 -0.030 0.139 1.224 -1.172 0.538 0.060 -0.818 0.282 -0.339 -1.035 0.036 0.594 0.865 1.374 -0.389 -0.477 0.112 1.994 -0.534 -0.072 0.550 -0.558 -1.572 -1.235 0.513 -1.745 -0.624 0.386 -0.955 -0.915 1.400 -0.583
0.628 -0.262 -0.772 1.192 0.858 -2.170 -0.130 0.540 1.326 1.199 1.350 1.183 -0.301 -0.205 0.438 0.686 -1.327 1.004 -0.243 -0.950 0.273 0.603 0.957 -0.551 -1.189 -0.247 0.868 -0.616 1.620 -0.493 1.169 1.129 0.521 0.352 0.759 -0.589 -0.524 1.017 1.418 -0.991 -0.215 -0.922 0.576 -0.384 -0.741 -0.174 -0.789 0.328 1.810 0.554 0.409 -0.162 -0.157 0.995 -0.669 0.879 -0.549 0.706
-0.212 -0.865 -0.521 -0.804 0.930 0.422 0.453 0.557 -0.086 1.170 0.225 -0.403 0.584 0.093 -2.083 0.778 -0.985 0.008 -1.063 -1.307 0.714 -0.433 -0.134 -0.876 1.982 -1.454 0.099 -0.642 -0.489 -0.721 0.184 0.696 0.785 -0.366 0.396 -2.825 -0.760 1.192 0.912 -0.735 -1.645 -0.560 -0.079 0.766 1.603 -1.894 0.822 0.783 0.923 1.618 -0.299 0.926 -1.357 0.314 -0.427 -1.408 -0.277 -1.098
-0.051 0.682 0.899 -0.303 0.516 0.712 -0.915 -1.038 -2.077 0.418 0.100 0.557 -0.507 0.281 1.193 1.072 -0.360 0.959 -0.950 0.070 0.789 -0.982 -1.079 1.753 -1.352 1.631 1.250 -0.306 1.127 2.240 2.417 -1.338 0.109 -0.859 -0.884 -0.963 0.150 0.801 0.594 2.350 2.457 0.477 2.416 0.421 -1.155 -2.677 0.122 -1.554 -0.206 1.385 -0.072 0.729 -1.330 -0.231 1.416 -0.689 -2.528 1.324
0.286 0.676 0.962 1.736 0.770 0.251 0.549 0.979 1.330 0.293 -0.912 0.139 -0.617 -0.136 -0.637 -1.064 -0.204 1.707 -0.126 0.018 1.139 1.083 -0.707 -0.621 0.972 -0.194 -0.478 -0.259 0.324 0.633 -0.410 0.262 -0.320 -0.319 -1.044 -0.520 -1.081 1.134 -0.587 0.428 -0.304 1.795 -1.576 -1.721 -1.777 0.293 0.648 0.290 0.526 -0.488 -0.306 -1.121 -0.077 1.593 0.238 -1.514 0.047 -0.679
1.832 -1.173 -2.106 0.106 0.378 1.036 1.075 0.807 -1.161 2.018 -0.854 0.412 0.981 1.561 1.723 0.278 -1.129 0.624 -1.188 -1.500 1.074 -0.295 -0.015 1.094 1.000 0.548 -0.553 0.079 -0.081 -0.189 1.151 0.825 -0.019 -1.417 -0.979 1.380 -0.145 -0.441 -0.792 -0.768 -0.893 0.448 -0.674 -1.635 -0.351 -1.035 1.287 -1.100 -0.214 -0.950 0.249 -1.854 0.304 -0.320 -0.423 -1.418 -1.153 -0.726
0.943 -0.236 0.153 -0.033 -0.282 1.999 1.680 1.274 0.179 0.740 -0.262 -1.096 0.624 -0.277 -1.019 -1.258 -0.405 -0.160 0.189 0.299 -0.122 0.036 0.308 -1.673 -0.473 -1.923 1.165 -1.385 -0.240 2.570 -1.615 -0.951 -0.974 -0.505 -1.933 0.108 0.327 0.213 -0.059 -0.977 -1.266 0.711 -0.564 0.128 0.337 -2.336 -2.740 0.991 0.120 -0.081 -1.061 -0.611 0.260 -0.854 -0.513 -1.185 -0.340 0.797
-0.009 0.137 0.021 -1.563 -0.134 -1.237 -0.878 -0.431 0.819 -0.776 -0.659 0.072 -1.541 0.382 0.230 -0.545 -0.993 0.706 -0.169 -0.266 -0.063 1.071 0.277 -2.217 -0.010 -0.806 1.209 1.424 -1.025 0.699 -1.104 0.217 0.633 -0.416 -0.790 -0.132 -1.554 -0.158 -0.770 -0.077 0.581 0.236 0.888 -0.113 0.686 -0.760 1.051 0.137 -0.634 -1.319 -0.435 1.185 -0.344 -1.274 1.397 -0.269 -0.446 0.332
1.257 -1.739 0.560 -0.668 -1.036 -0.396 -1.701 -1.022 -0.505 0.633 0.080 0.493 -0.744 -0.481 0.138 0.090 1.782 -2.027 -0.713 -1.426 -1.541 0.585 -0.044 0.298 -0.122 -1.385 -1.186 2.249 1.326 -0.083 -0.455 2.889 -0.132 0.487 -0.976 -0.098 0.139 1.128 -0.495 -0.107 -1.681 0.909 0.556 0.372 -0.612 -1.351 0.653 0.413 -0.113 0.602 -1.249 0.847 1.574 0.845 1.211 0.419 -1.283 -0.092
0.150 -0.372 -2.136 0.564 -0.970 0.374 0.296 0.058 1.108 -0.191 0.025 -0.009 1.327 -1.075 -0.228 -0.072 0.309 1.378 -1.155 -1.167 0.226 0.228 0.113 -0.529 0.205 0.056 1.335 1.791 -1.359 1.456 -0.015 1.282 1.083 -1.729 1.690 -1.860 0.868 0.520 0.366 0.051 -0.591 0.272 -2.301 -1.955 -0.698 0.165 -0.193 0.234 1.459 0.389 0.358 1.628 1.574 0.093 -1.082 0.429 1.633 0.933
-0.192 -1.574 -0.185 -0.560 -0.881 -0.028 -0.903 0.139 -1.601 1.205 -0.657 -0.469 1.513 -0.819 -0.700 -0.320 0.927 2.165 -0.349 -0.783 -0.227 1.103 -0.785 -1.101 1.507 -0.990 1.453 0.897 -0.116 -1.222 0.283 1.167 0.185 1.159 0.537 -0.617 -0.852 1.431 0.318 -1.216 -0.261 1.173 0.613 -0.571 1.369 -0.661 -0.367 -1.189 0.342 -0.666 -0.505 0.490 0.976 -0.444 0.291 -0.905 -0.655 0.653
1.656 -0.589 -0.444 1.706 -1.403 -0.476 1.490 -0.396 -0.394 -0.168 0.870 1.555 -1.102 1.327 0.700 0.014 0.030 1.516 0.257 1.684 -0.307 -0.409 0.303 -1.130 0.415 0.098 1.117 -0.998 -0.010 0.223 -0.637 0.772 -1.974 -0.871 1.868 -0.032 1.867 -0.552 -0.051 -0.648 0.853 -0.467 0.051 -1.150 -0.059 0.426 -0.694 0.773 -1.849 0.423 0.040 1.127 -0.078 0.579 1.947 -1.014 0.910 -0.625
0.977 0.490 -0.589 0.395 -0.235 0.040 1.046 -1.566 -0.975 0.238 -2.168 -1.811 -1.398 1.278 -1.763 -0.823 -1.139 0.337 -1.253 -0.897 1.328 -0.182 -1.478 0.941 -1.638 -0.148 0.378 -1.420 0.236 0.737 -2.134 -0.503 -2.018 -0.550 0.844 0.294 -0.546 -0.600 -1.480 0.320 1.170 -1.201 -0.146 -0.469 -1.084 -1.812 1.231 -0.201 -1.167 0.832 -1.577 0.857 -0.438 -0.043 0.382 -2.146 -0.886 0.105
0.708 -1.161 -1.329 -2.444 0.428 1.319 -0.397 0.012 0.641 1.325 -0.588 0.528 0.550 -1.660 -2.343 1.043 0.259 0.938 1.631 0.177 1.878 1.948 1.530 -0.031 -0.891 0.587 0.835 -0.623 -1.707 -0.819 -0.285 -0.203 -1.486 -0.818 0.697 0.573 -0.344 1.077 -0.203 0.779 0.405 -0.188 0.843 -1.249 -0.205 0.529 1.762 1.034 0.643 -0.666 0.186 0.797 1.249 -0.163 1.397 -0.059 0.084 -1.114
0.728 -1.553 0.220 0.553 -0.155 -0.232 -1.534 1.319 0.561 -0.096 1.332 -0.306 1.452 -1.069 1.268 -0.807 0.155 -0.350 -0.284 -1.720 -0.481 -1.462 -0.034 -0.983 0.327 1.574 0.541 1.013 0.085 -1.375 -0.985 -1.045 0.060 1.227 -0.892 0.298 1.481 0.355 -1.456 0.470 1.719 -0.263 0.173 -0.600 -1.189 0.730 -0.241 0.262 -0.697 0.560 -0.009 0.500 -0.863 -0.576 -0.355 0.640 -0.351 -0.190
1.777 -0.058 0.717 -0.062 1.054 1.199 0.503 0.163 0.674 -1.121 0.961 1.057 0.373 0.692 0.141 -0.091 -0.894 0.529 1.142 -0.971 0.689 -0.659 -1.358 -0.272 1.702 -0.533 -2.481 1.266 -0.102 0.100 1.275 1.975 -2.346 0.538 -1.222 1.223 0.634 1.058 1.560 0.897 0.431 -0.089 -1.706 1.937 -1.510 1.637 1.096 -1.022 0.468 -0.441 -1.238 -0.078 -0.333 -0.417 -1.118 -0.645 0.734 -0.554
1.303 -0.109 -0.115 -1.078 -1.532 -1.016 -0.346 0.657 -0.792 -0.030 -0.487 -1.642 0.538 -0.462 1.019 0.505 -0.039 1.055 -0.585 1.489 0.731 -0.850 -2.392 1.102 -0.833 1.172 0.600 -1.563 -0.948 -0.214 -1.519 0.735 -0.898 -0.842 0.598 -1.269 0.285 -0.412 2.514 -0.445 -0.829 -1.674 -0.967 0.810 -0.715 -0.256 -0.836 -0.525 0.570 1.171 0.389 -0.550 0.136 -0.767 1.966 -0.704 -0.980 -1.868
0.559 -0.883 0.328 -0.387 -0.095 0.257 -0.942 0.847 1.010 1.430 0.928 -0.376 0.874 -1.297 -0.415 0.702 -0.759 -2.815 1.348 -0.667 0.989 -1.683 1.360 -0.732 -0.477 0.801 -0.996 1.010 2.224 0.489 0.819 -0.638 0.568 -0.257 -0.755 -0.600 1.658 0.599 -1.008 -1.269 -0.707 -0.279 -0.358 0.698 -0.899 -1.009 -0.504 -1.396 -0.517 1.630 -0.689 -0.102 0.132 -0.250 0.471 0.272 0.941 0.241
-0.181 -0.160 -0.998 1.307 0.903 1.515 0.334 1.168 0.199 1.269 -0.974 0.130 -1.038 0.860 -0.526 -0.613 -2.546 -0.270 1.297 -0.626 -0.296 0.759 0.453 -0.074 -0.607 1.316 -1.206 1.571 -0.026 -1.367 2.982 0.087 -0.462 0.621 1.363 0.105 -0.874 0.336 -0.367 -0.965 -0.993 -0.160 0.391 -1.057 1.374 0.091 -0.044 0.421 -0.733 -1.188 0.373 -0.351 -0.085 0.530 -0.682 -0.274 -0.843 1.479 -0.953 1.368 -0.030 0.531 -0.474 0.662 -1.955